074A
067A
1EB7
1867
0607
1626
038E
0777
01F9
08AA
04E9
08A0
0148
07BF
0DE2
1C43
1FAD
1DFD
0975
027E
00CE
1B85
01D4
1FC2
029F
078E
1C99
02E1
07B9
1AED
014C
03AD
0050
1AFB
1CB8
0329
1F98
0677
1BD0
03DE
0702
0AF9
1D01
1BCD
0B27
0381
01DF
05D6
0354
1E3E
1EFE
1FEF
1C51
16B5
1C91
008F
1D5B
1A76
19DB
1F67
01A6
1D76
03AF
1CF5
1F7A
1BCF
1E67
1E03
00D7
14DD
01E3
00C5
019B
0041
1D0C
1F3B
1D5B
0865
048B
1BB7
1B1D
1E54
1EF6
0044
1CE8
1E0F
006D
1BDF
0096
0187
1B4E
1F28
0480
1E33
1EC4
1D8F
00D9
04BD
0058
01EA
1C97
1BE2
1F9F
043A
0323
1A49
0255
01D8
1CB4
1D30
01B0
005E
0076
0168
1CC1
01F7
1D88
1E99
01EA
01DB
000F
1E9D
18F8
1F41
1E5A
03B0
02DF
1E5F
04F3
0866
1F1C
00CF
1E0E
013A
0186
1F34
036A
1C24
1BCD
1E16
0134
1A43
0598
0206
012A
00D8
1A9B
02C4
1FA3
1B91
1E34
01EF
1D38
02D1
1E0E
004C
1E60
00B4
0168
1DC6
1D43
1D87
1C97
00A3
020E
0151
1EF9
1E3E
1DDC
01DB
03E5
1D0A
1EE2
0422
1E4F
0052
1E2B
0333
0132
1CD2
1EC8
1BCD
1B0F
03B5
0457
1E13
0241
1EC5
00FE
021C
16F9
1E57
