1EE6
1E5B
19B2
1A9B
1FD9
1F42
042E
1EF7
184D
1588
043B
19F7
1C80
1B15
1901
1FBE
1B9F
1E58
0378
1FD3
1C77
1B7C
030E
059F
051B
14E2
1DBD
1FA4
0212
1FF3
1E21
1E30
1583
1A02
1F9E
1CBD
1C0B
001B
177F
18B9
0249
19EF
017E
15C6
01F5
0024
1F22
1DBD
1E35
1DD8
1888
176A
0188
1813
1E73
1923
1EC1
1A51
1C60
1978
18A6
1B0C
1910
018F
