1BF3
1A53
1EC6
1E8C
1AAA
1EB6
1C68
1B53
1A28
19A7
1FF8
1BEC
1CCE
1DCC
1B99
1CF7
1FC1
1DCD
003C
1BD0
1D2D
1EEC
1E99
1A5C
00FB
1E79
1EBD
1DB5
1AF0
1C08
1EFB
1F35
0158
1E1F
1EF2
1A96
19ED
1914
1C3E
1E9B
1BD4
1C4F
1C70
1BAF
01D2
0035
1FC6
1E57
1C56
1F35
1F4A
1DFD
1E0E
013B
1D58
1DD6
1AC7
1A7C
00DE
1F03
1A89
1BA2
1E02
1F02
1DEE
026C
1C1F
009B
1FE2
1BE4
1D28
1E19
1BAB
1AE1
1E37
1BCB
1E8A
1A44
1E5A
188F
1EBF
1A04
1D32
1C91
1BCA
01AE
1B1A
19FA
1CCC
1EB7
1D8B
1F5A
01E2
1BC3
1D47
1BCF
1D90
1DEE
1E6D
1A23
1926
1CDC
1D24
005A
1B21
1DA4
1B18
1B5B
1DFE
1B21
1989
1F55
1A45
0063
1A7F
1D0D
1BB4
1C9B
1DDC
1D05
1D9C
1DC1
1D6A
1B53
1AA1
1CC1
1EAD
1B3F
1C95
1A43
1BF5
1A25
1ED3
1BDB
1BB1
0033
005E
1BCD
1F20
1EE8
1C49
1F4F
1B88
1D31
00B0
1A6A
1DF5
1E6B
1F38
1D88
1F17
1B7A
1BE7
1B3A
1DFB
1C3A
1C6B
1FCE
1BE3
1E7D
1E44
1B54
1E8D
1BC8
1D5D
1D67
1DE7
1B2E
1CFD
19E3
1A9F
1D3B
1AF7
1B82
1E24
1D7A
1F50
1A35
00AA
1C5D
1FB7
0070
1FDA
1F17
1EB5
1916
1C45
1AC5
1C9B
1DC5
1B5B
1B75
1DDD
01AF
0070
1A0C
1F00
182B
1DD5
1B88
1998
1EAA
1F55
1BE6
1FD1
1A72
1C38
1BA2
1FC8
1938
1BF8
1A13
1C56
1FBF
006B
196C
1D6D
1F2A
1A00
1F49
1B87
1C91
1CA2
1A6A
1E15
1E54
1E3A
1A7A
1C18
19D4
1A2B
1F23
1E24
1F3F
1BE7
1DFC
1A45
1DB9
1E25
1B24
004A
1989
1CD1
1C15
1CB4
1B74
1B13
1B46
1E48
1AF7
01D2
19E5
19ED
1EA2
00D4
1DEA
1D91
1B2A
1DA5
1C27
1B82
1C47
1BA3
1AB6
19AD
1F99
0282
19E4
1DF6
1C52
1BFA
1CA2
1D12
1A6D
1F17
1DE3
1DFC
1F69
1DCD
00F7
1FF1
1B25
1C8F
1DC1
1CEC
0042
1D75
1CE4
1D04
1E7B
19D8
1E35
1E7D
1F03
0063
19DB
0221
1D54
1E86
1EA5
1DDC
1D2B
1A5E
1DD6
1F16
1606
1FF5
1F58
1BFF
1F17
1C5D
1DF2
1BE5
1F94
1E60
1C6B
0026
1EAF
1D12
1B6B
1899
1ECF
1AF7
1CDA
1BFE
1BFA
1C6B
1EE3
1B52
19DA
18E5
1B44
1B32
1E91
1EAF
1A75
1A19
1AA2
1C91
15FC
1D6B
1AD0
1F87
1CC4
1EE7
1E03
1D6D
1BCE
1D4E
1D4D
1C58
1DC2
1DA7
1ECE
1BC8
1D3D
1EC4
1B13
195A
1DCB
1AFE
0141
1D48
008C
1FDF
1B17
1EB3
1B20
1DE2
19A1
1B6A
1CDB
1DE2
1E90
1AC7
1CA7
1C0E
1DBA
1C75
1D7A
1B8E
1CFF
1DD9
1BA4
1FA9
1E68
1DB2
1913
1C27
1FEA
1CA4
1E66
1D9B
1BC4
1DE3
1A78
1E2B
1F72
1A8E
1CCA
1B59
19E0
1BDC
1DF6
1C1F
1B9A
1E04
1ACF
1E78
1950
18D5
1B93
1B01
1FE4
0049
00D0
1B68
1C49
1CE1
1F61
0074
1E1A
1C3F
1DC3
1E11
1EC4
1B8A
1E61
1ADE
1B54
1E90
1C51
1C14
1B6B
1976
1B00
1BFA
1CE3
1F4E
1C62
1B9D
1DDF
0354
0125
1C89
02B8
0111
1EC1
0167
006D
1B35
1CDB
1A7F
1E3E
1D1C
1D0E
18EA
1A28
1AF7
1C8C
009F
1C39
1C02
1F4F
1E79
1D7D
1AA1
1C26
1BF1
1E89
186C
1BC1
1F56
00A3
1CBE
1DEA
1D54
1B9B
1A61
1F47
1CF0
1BD0
1D7D
0024
1B2A
1F24
00CA
1B4B
0070
1E28
1BE3
1D79
173C
1B83
1C84
1E90
1AEB
1BF9
1A24
1D9A
1EF3
1F4E
02AB
1B62
1DAC
1A44
1C2D
1B7C
1D7C
1E5A
1A96
1B7F
1DD3
0190
1BC9
1D0C
1E3A
1E15
1F5A
1CA2
1E78
1D6A
19C0
1A09
1CC5
1F98
1E54
006D
191C
18BD
1D78
021C
0025
1E82
1ED0
1F17
1B5B
1FF7
0088
1B83
1B67
1BD5
1E4B
1C5D
1D1C
1E52
1A7C
1E4E
1F27
19FC
1C66
000E
1CA3
00A3
1A93
1B0A
1B64
00B8
1F36
1E4A
1E28
1F7D
1DBC
19E2
1FEA
1FF6
1BB7
1F9E
1C57
1AEE
1F6C
1CB2
1F95
1EB3
1D7C
1E0D
00D7
1F01
1EA9
0237
1AE7
1D9D
1BA8
1E9E
1AAE
1DDA
1A7C
195E
1C91
1D74
1C8A
1C6F
1AF6
1EA9
18CF
1FC5
1C17
1B1E
1E10
00F6
1C26
1C98
0046
19C1
1BB9
19E5
1AAE
1BD5
1C4E
1993
1FCB
1A71
1BC4
1B39
1A0C
1D1B
19F9
1C59
1AFB
1E18
1E52
1CAF
1CF0
1977
1EBF
1A43
1D6A
19BA
1F6C
1E0A
1F0E
1B4A
1D0C
0118
1967
1CE2
1FE7
1B1E
1D43
021E
1B4F
1D2D
1C99
1E33
1C1D
1976
1E7F
1B0A
1F38
1B15
0043
1B45
024F
1998
0093
1C25
1E6A
1BBC
1D25
1D86
1D2E
1995
18AF
1EC8
1F90
19A6
1E45
0291
1990
1C67
1D65
0086
1B61
1CB7
1DC0
0362
1C71
1C0B
1C22
1D3A
1C1A
19CC
1FE4
1B25
1B9F
013D
01D4
1E48
00B0
01CA
1CFA
1913
1F59
1E77
00C5
1D09
1C52
1B1A
1ACB
1DE3
199F
02B4
1924
1B0B
18E9
1EC1
1E74
18D0
1AC8
1C60
1C37
1E56
1C42
1F01
0126
1915
1FF1
1FCB
1C95
1C3F
1D16
1B94
1DC3
1D3B
1B99
19F3
1CEA
1EE4
0099
1FEE
1C57
1B07
1BF1
1AD6
1BD2
1B53
1EDF
1B36
1F59
1CD9
0054
1F47
1BEC
1DC9
1F26
024B
1D79
1B29
1FE4
19BE
1D57
1F64
1CD6
1A51
0111
1BEE
1C31
1FAE
1B70
1D21
19ED
1FC8
00F0
1EAB
1CCD
1BFC
1F82
1E8E
