055C
006B
010B
1A90
0082
0066
01ED
0171
0202
04D5
04C8
1D91
1DC7
030C
079E
0025
002C
0136
1EAA
1F30
00D6
1E52
1ED9
1E02
1E90
02BB
027D
1F7F
0065
03DB
0398
02B5
01BB
1D62
0165
1F59
1C1C
1EF6
01BB
1FC6
1FE8
02C3
178F
1AC1
05FC
010C
1EBB
1E99
1D15
1936
1FC1
03D9
05B5
017C
02C0
026D
0241
07DF
057B
1E01
1CF0
010B
1FDD
03E2
1A7A
1EDD
05F0
1C4B
1E56
1C80
1B3F
1E77
1F93
1EAA
015A
0112
03AC
1E37
1DAA
002B
06D9
199A
1D41
18A9
0412
035A
19EA
066D
0095
0071
04AD
071A
1CE1
1F89
1B1E
01CA
07A9
180C
19E4
1722
0262
05D3
1DA2
1A13
184C
070E
18AE
014B
028A
00B5
1CC0
1E43
1C2F
05C4
1989
010C
03A8
0444
0143
03F0
0721
0269
04E2
0730
1ED2
1788
17FA
034C
1FFF
1C45
027C
03B0
0641
06AB
05F4
1F61
1963
0677
0761
0895
1A73
0759
19ED
1CA2
0475
0658
07D5
0233
09E3
0631
0491
0A94
049A
099E
0062
1EE9
0404
0B7B
1FCA
0792
1ED5
00B3
1F23
05EF
1BFF
0A3C
0161
18DF
08C4
1B01
1760
087A
0206
16BF
0925
1779
164A
1B80
1D09
1906
0597
0185
08B0
00D3
1A58
0A31
07C1
0362
066E
1CB4
0540
1377
