3BA6
3B36
3F89
00A6
2F29
01E2
0C35
0970
3A0D
3672
3A05
08CD
0897
0271
0FA4
389B
3ECC
0B5A
3E06
1038
3B94
3746
000A
3BB3
1272
3C4F
0631
3F0E
0457
3BCF
0090
03DA
0635
2BEA
086E
06D5
00AB
08F8
3D2F
2CF9
34E9
0175
3E5F
0F3A
3496
0E5B
0102
16B8
3BE3
3A15
09DE
3DB9
3B26
3FC5
3E98
0E02
3F9B
03A6
09F5
03AB
38B0
0019
39E8
0811
03DB
0070
36FD
00F4
3FDF
3F74
005A
04CB
2F70
385A
3EC8
002E
3C34
0B21
3450
395B
35EF
3322
3F05
3A82
3C60
03DD
37A9
093E
091A
0F31
0DA0
07F3
021F
3D69
008C
0668
050F
3E45
0828
3D59
0006
3C48
0346
3952
04D1
03BC
0403
027D
3DAA
02F6
3F98
0288
3DB3
34CF
0398
0872
07BE
3AC9
3ACD
3ECA
39E8
395F
3F8B
03BD
0968
04AF
0454
3D02
3DCA
04C5
0129
0699
0054
3C08
02E2
01E3
3B34
3FFB
042D
0057
0536
3EA4
3ED1
07AF
3A4F
3C38
33CC
3335
3F90
0809
03DB
0C77
3C80
3B6B
3A2E
022F
049C
0CF1
098B
10E5
056D
3A16
02DA
0DFB
3964
00FF
39DF
3B37
0020
3A51
014A
077F
06F9
36CF
0B5E
07C9
3ADE
361A
3EB1
3499
3746
0ADF
3861
39E1
04B5
0517
3B94
00C8
0BF2
3DF5
36A7
369E
