03E6
1FD4
0530
1A36
0041
1E9E
1F7F
1DC0
196D
00B9
176E
187B
1E5D
1A41
1F33
18DC
028A
1ECB
0107
0225
1C0D
02B0
1B09
1DD4
00A4
1CD5
1F4B
1EB6
050D
02FC
1CFA
00E0
0320
00EE
00CA
1D3D
0763
1A92
002D
194C
194A
1E66
1CFB
00CF
173C
0124
01E3
0073
00E6
060F
1DAE
0023
1E77
0468
0193
1964
0022
1CC9
05D2
003A
1BC9
0128
1E80
1C0B
1796
1CFE
1BFE
02E4
0650
1CDB
1FAE
1888
032D
0468
045C
1FB1
1FA3
00B0
1E89
1BF7
1D29
1C64
1FCE
0298
1915
1A12
1D6A
1BB8
1D58
16A9
060D
0035
010C
052E
02F6
1B2C
194B
012A
1B68
0523
1BB2
04DE
024D
1E78
1FE2
1851
01EC
1FBD
19D0
1FD4
1BA0
1C08
1DE7
1574
01ED
0112
1B00
0092
0022
019E
1EE0
1C6A
03FA
18B3
0060
1CE3
04D5
1E18
05FA
18D4
1EFF
0077
04A6
1E38
0609
00C5
1F8F
1EF4
1D5D
1921
054C
1D4D
1BF9
1DEB
05C2
1DEF
04D5
06ED
1E91
01EF
1D44
033D
0954
0997
00A7
054D
0594
1F95
023C
019A
1EEF
001A
0371
1EE4
03AF
1D62
02B9
1DF9
013B
040E
1F0A
1EE4
029A
0552
1DFC
1AE5
1CF3
1F45
00A4
0562
0594
00E3
1FDE
1B24
065B
0005
1BFB
0628
1BA5
01D9
0092
1FBE
