3CBD
01E1
00C2
3A29
3DD8
31AC
0F1D
3DF7
35BF
396C
3E9E
31BA
307D
05D1
388F
3B78
058B
05C3
3AA4
2E18
3D91
0747
0AB3
3FC5
05BC
01B2
3307
2F6E
3EC2
3522
08FB
0488
3E37
3DB2
0928
3966
0233
06F7
3F70
337D
3F8F
0AD1
375C
2FA2
0C6C
025C
2B2E
0016
039E
0DD5
2EF5
0315
3A78
0EF2
3A5B
1061
14E9
3D6D
3592
3EBA
3D18
009D
31D0
02D9
00CB
08EB
0FE2
0B00
130F
01F0
3FE3
367D
3A68
0AF3
09D3
0837
00AE
0826
01F6
05D5
3424
0938
0635
04FA
04A3
110D
06E9
3F3D
33A5
388F
3ECD
375F
056B
0DEA
06F2
0189
025D
04CF
34F0
3578
0092
0895
3B79
32EB
0606
36A0
05AE
008A
020E
3D7A
08F6
09A0
3E75
3BCD
0158
068F
014E
3E39
011D
3F8F
0746
3C3D
3834
0167
3F8B
0341
04E8
3A31
04F4
02D4
3992
38EE
0AC4
0545
0D8A
042F
2CBF
00A8
3BEB
3FF3
35D8
3A57
0917
04DC
3891
0455
0A9A
343F
032D
0AFE
3F46
32B3
3E61
0493
3A49
0F4F
07E0
0412
3A7F
3C4A
3751
1290
0072
33A4
3E8F
0090
057C
0676
3E0F
1411
3F22
36FA
0469
0601
0AB2
3E90
0194
0872
38AF
0C7A
37E6
3EB3
376D
2E77
33E0
109A
39E9
026E
02A2
3B4D
3FB9
3ED1
